t
th
a
##in
##re
the
w
s
o
##er
##ou
##at
##nd
##it
h
c
b
##is
##en
##on
##ing
f
to
m
##es
p
##or
##an
d
##ll
I
##ed
and
l
of
in
y
##ar
g
you
##as
##om
n
##ve
that
##le
##ic
##us
##ow
##et
##al
e
##ut
it
##ot
be
T
##ion
is
wh
re
on
we
##ent
A
##ay
ha
Th
##id
S
##ac
##gh
##ver
##ke
for
##im
##ly
##ur
##ld
he
st
##all
##ro
##st
##se
##ct
##ith
##ir
##am
this
##if
W
##oo
##ri
was
##ght
u
with
##ad
##ch
se
k
an
The
li
do
B
have
as
##th
are
sh
##ust
##ce
##ally
##ill
H
j
##ter
go
And
##ation
C
so
##ome
not
##op
##il
##ore
ne
can
me
at
##ould
##ant
M
like
##ere
they
##ra
##ers
ab
de
kn
##ge
Y
ch
##ul
##pp
or
al
con
com
##ess
su
##out
your
So
##ate
one
all
ex
##est
fr
just
pro
know
O
##ain
but
##ol
##ive
v
##use
##very
##art
##qu
my
##el
N
##nt
It
what
##ab
P
wor
out
there
up
##um
from
##pe
tw
r
##and
##ight
##ort
##un
L
##ist
about
##ide
##ig
##ake
D
##em
##os
##king
##rou
##ind
##our
##res
We
get
E
G
##ack
le
##ity
##od
F
##ard
pl
our
int
##ment
will
##ies
by
##ink
##ca
if
##red
##her
##ie
us
some
don
##ven
##ood
##ast
R
his
tim
tr
more
##ich
##ous
##ame
going
had
them
##ook
pe
Wh
You
But
##ine
here
would
##cause
##right
##so
##ost
##ure
has
##ect
think
fe
##ong
see
when
who
were
really
their
want
##one
##ople
then
time
sa
##ap
te
He
ye
##ck
her
thing
right
which
##itt
##ice
##act
people
##ty
two
J
im
##ther
##ci
##ose
cl
qu
man
also
##ree
en
##ud
how
##reat
##ak
##hing
##ag
any
##ff
##ace
##per
because
very
##own
ad
act
been
now
ag
into
comp
##ars
##ions
##are
##ite
##iv
these
##ays
##ep
This
she
##ans
##ah
##een
over
##ry
lo
##age
pr
sp
##ue
co
##ick
##ber
did
##ip
##ach
back
no
cont
other
every
##pt
need
him
U
In
work
##irst
part
look
##ittle
##ble
##iz
un
make
##omet
##nder
##ish
##na
little
off
than
got
##ually
per
good
way
could
ac
imp
##able
where
##iff
That
res
##ount
##pl
##ance
first
ro
pre
##ass
say
##int
##ated
##ire
##uch
##ase
somet
##ound
down
diff
##sel
gu
am
##ress
lot
##ence
dis
##orm
##ix
po
##ving
##enty
K
spe
##und
##he
much
ar
##round
app
##co
##ark
new
##ater
##ult
##end
even
start
##ations
##rough
##ile
##fter
well
##be
They
three
##ign
##ild
said
##ough
##ang
too
##ade
bl
##ens
inc
##ia
those
mo
take
through
fl
kind
things
bet
only
St
let
##cess
Ch
##ary
##vel
If
##xt
##other
##av
##ical
##ord
again
something
##onna
##fore
may
##ting
bu
differe
##urn
gonna
does
##uct
##og
twenty
gr
Ye
##wn
should
comm
##ition
under
hel
##ory
fo
use
##igh
##ife
actually
tal
call
##ents
##ious
##ull
There
Yeah
most
ke
##ors
##ved
##ys
sc
happ
##ope
help
##atch
What
rem
##ple
Now
br
##ool
##oth
four
##self
str
##ne
##thing
put
##ial
great
##ail
##ub
##ning
sm
feel
five
##ody
##undred
##iss
##ank
##get
##aking
many
hundred
years
being
come
mean
##ily
different
after
ser
show
##form
##ful
##oy
six
vide
V
its
point
day
des
##ons
bit
bel
before
aw
end
Oh
still
##ath
long
'
##ise
##ob
##day
add
##ft
##ves
##ces
##ady
cr
around
try
##les
##vers
##kay
##ian
##ates
find
##ward
As
eight
##lic
same
pos
em
made
supp
life
Be
##pect
dec
play
##ange
att
pers
##ways
high
hand
next
cons
own
inv
##ower
ind
##ert
##ng
##ave
year
big
##ating
world
rel
sure
tra
##ew
##ered
fin
Well
sl
doing
##bs
set
rec
##ual
##cial
ph
##erm
love
##ph
real
last
##ict
bo
ra
##ible
wr
##mer
count
##ities
always
##inet
##ments
##uc
might
inter
video
##gin
tell
never
##vent
import
##ied
sy
How
##ically
##ought
thir
rep
##ks
##ib
fam
##ject
bas
She
give
##akes
ninet
reg
min
op
def
didn
##te
cour
why
ent
place
ins
car
##ather
person
##ular
inst
prod
##lect
Al
today
bec
sur
All
another
bus
keep
##ell
##ese
##riend
quest
talk
##als
##ings
mon
##cond
##old
acc
la
num
##ident
che
##iness
turn
ear
No
##ousand
better
##ific
loo
gl
##oc
important
##ited
An
thousand
##ility
##llow
used
gen
sim
##li
happen
Un
Let
##air
##ock
##ably
##gg
watch
For
sw
##ren
##ute
##ever
pol
sch
When
such
fif
home
cle
contin
##ouse
friend
##uring
Okay
##gr
able
stud
eff
##hip
##body
top
##ness
exper
pret
both
done
##cri
mark
while
old
##ros
##ont
second
##ative
thought
best
found
##iew
belie
each
##erest
tri
eas
ca
fact
care
fun
##atter
##ures
head
lear
water
hard
few
side
##ween
exp
away
##its
ext
##lud
run
trans
##ince
sk
open
##cus
between
called
wee
pretty
##ason
far
##ember
##omm
interest
##any
##ner
##uff
pres
cur
child
##ee
toget
together
##olog
God
##ond
char
looking
##stem
##az
##cent
ob
ass
##land
doesn
business
course
ten
##ps
##arch
##ced
##ms
##ize
##nce
ref
name
##ross
grow
##oney
went
##ics
##teen
cou
prob
ret
guys
came
##ash
##led
Eur
##ues
ide
##gan
everything
getting
ask
cor
build
sign
small
##uck
el
col
Is
##ational
##stand
##cy
conf
##der
bre
cap
mod
##ets
##ike
number
comple
##ertain
ever
coll
hum
Europe
cre
met
exam
move
pass
left
system
includ
Thank
##cept
wom
product
##ten
rest
probably
dri
Do
gener
anything
lar
My
school
lead
sub
ty
plan
seem
whole
##irect
light
must
mom
opp
support
family
##ices
##amp
proble
dr
##ready
using
##ense
prov
##ush
##ax
power
Re
##alth
ev
stand
war
##ts
▁
##e
##t
##o
##a
##n
##i
##s
##r
##h
##l
##d
##u
##c
##m
##y
##g
##w
##f
##p
##.
##b
##,
##v
##k
##'
##I
##T
##A
##S
##x
##W
##j
##B
##C
##H
##?
##M
##O
##Y
##N
##P
##E
##q
##L
##D
##z
##G
##F
##R
##!
##J
##U
##K
##V
##Q
##Z
##X
